1000001 1100111 11100000 1111111 11111 1010001 1000011 1110111 11100010 1001011 1110101 10011 11100001 1000001 11000011 1111111 1100100 1101010 11010 1011110 1110 111101 1010010 11011011 11111 1111111 1001100 1010010 10010011 11000111 11001000 11011011 11000011 11101000 101010 1111111 11111100 1001 11001001 1111111 11011000 11011 1101011 11110011 110 1110001 11010001 11111001 11101001 1111111 11010 1100000 11100100 1010 10000001 110 11001011 10100111 100111 10010000 111111 1111 1100000 10010 11010 101001 10111111 111001 1111111 111111 10111111 100011
